b'[UNK]'
b'[MASK]'
b'[RANDOM]'
b'[CLS]'
b'[SEP]'
b'_START_ARTICLE_'
b'_START_SECTION_'
b'_START_PARAGRAPH_'
b'_NEWLINE_'
!
,
.
0
1
2
3
4
5
6
7
8
9
?
\
_
a
b
c
d
e
f
g
h
i
j
k
l
m
n
o
p
q
r
s
t
u
v
w
x
y
z
the
of
in
and
to
##s
start
was
newline
for
on
as
with
he
is
by
paragraph
at
his
section
that
from
it
an
were
##ing
##ed
which
also
this
had
first
##e
are
be
##d
##a
she
after
article
has
their
or
new
her
but
not
##ly
##n
its
##er
one
##y
who
##t
they
two
have
been
##r
during
other
##o
when
years
##i
all
time
##l
school
into
over
later
would
##es
then
university
##on
there
world
where
him
became
more
##m
only
made
year
##al
such
up
##h
between
may
out
some
about
most
career
second
under
against
used
early
season
while
many
life
history
no
including
three
these
well
state
both
american
city
work
being
national
united
before
club
hughes
won
through
part
until
##k
home
music
team
company
north
since
##u
born
than
will
several
can
south
states
##us
album
group
known
name
them
league
following
however
film
##0
##c
##an
series
##th
##ers
began
played
##ic
people
war
##le
st
final
four
same
age
##in
family
##ion
##ation
church
west
area
line
called
##en
station
##ia
now
day
high
released
##ment
college
000
de
march
john
took
end
june
number
##g
service
van
game
january
october
york
july
international
april
house
september
##nt
included
so
august
found
##man
book
did
use
##rs
member
public
title
named
##ies
county
##1
received
##2
##p
##ry
said
along
##ra
death
each
show
##ist
back
law
served
production
former
london
road
building
2014
died
radio
##st
##ton
band
district
students
around
major
king
place
##ity
10
because
championship
set
november
record
##ts
2015
song
win
##f
2017
any
bonds
due
##z
games
government
moved
off
##um
son
third
football
held
local
2016
another
children
december
if
left
2006
like
own
general
located
members
east
include
2010
based
next
2008
population
published
still
##b
2012
##ty
##w
could
run
##is
2013
again
##ie
best
research
british
last
program
single
went
##ling
##or
2009
2011
february
river
party
system
##tion
18
side
those
##te
2007
order
announced
european
five
just
late
##ted
##x
father
main
##re
art
large
long
president
round
small
2018
match
million
times
what
original
way
##ate
##land
become
education
great
married
worked
##ive
down
according
started
although
came
##ting
air
having
led
produced
##na
20
design
very
within
##ce
##ch
30
center
joined
western
island
street
##ian
political
##4
century
court
heyman
institute
six
women
##ar
25
much
royal
town
##3
often
12
among
anderson
hit
signed
us
##ne
average
old
aircraft
award
built
position
make
top
tour
2005
german
per
thomas
##5
board
development
open
player
spirit
uk
##7
##km
given
period
##8
form
french
recorded
wrote
young
##6
##able
##ine
##ve
gerwen
returned
play
society
take
various
we
without
15
site
##ge
11
appeared
opened
white
different
live
role
works
association
considered
railway
##9
##ter
14
field
further
records
total
william
working
english
every
james
never
near
performance
point
television
using
##de
debut
grand
northern
release
business
director
established
project
##ck
##el
##la
country
even
himself
together
##ism
21
do
##v
clubs
division
land
rock
services
16
continued
created
power
race
species
training
##les
australia
europe
free
george
ii
support
##ant
##et
army
24
miles
track
episode
office
you
days
personal
players
red
wife
act
canada
lost
##ated
##ll
community
few
once
popular
##way
museum
special
elected
founded
media
park
union
##ness
##se
events
head
living
medical
route
addition
making
performed
similar
version
##as
##cy
##me
##tic
eventually
##ma
##nce
##ns
despite
playing
square
black
car
case
chief
followed
haley
men
available
battle
contract
model
seven
collection
council
san
though
##ble
##ds
19
appointed
body
daughter
described
eastern
man
night
term
13
22
degree
finished
trains
water
cup
my
peter
##at
##ey
##son
2004
attended
control
schools
short
success
written
##ating
##da
26
central
level
originally
professional
should
sold
##age
100
lead
months
##ct
##il
##ring
##ta
completed
event
leading
shows
southern
student
theatre
throughout
##ial
##ley
areas
awards
base
force
private
producer
saw
summer
##ng
##ur
christian
department
featured
good
pegida
right
studies
winning
##est
17
2019
festival
gave
half
hall
management
manager
pentecost
present
return
runs
study
train
##ler
##ments
##ration
designed
important
light
los
love
magazine
mother
others
police
sound
tv
engine
france
points
process
upon
via
##ations
2000
post
robert
village
##ms
class
front
video
academy
currently
library
mark
range
reported
##ary
brother
germany
how
military
modern
see
##ls
##up
##ure
david
help
paris
previous
products
sent
songs
stage
##ful
charles
developed
eight
instead
less
little
paul
remained
youth
##ions
##red
artists
charvet
current
fight
groups
serbia
##ke
##ping
2003
broncos
carolina
claimed
culture
formed
get
involved
result
teams
writing
##ons
28
31
arts
california
centre
committee
common
met
##ville
23
able
campaign
copper
interest
michael
movement
older
##it
##ized
##led
1998
across
away
fourth
science
standard
stated
taken
##ent
##os
2001
england
evidence
example
la
size
womens
##ance
##ves
added
angeles
brought
gold
highway
officer
provided
soon
traditional
##io
##ka
##tor
##ual
##year
40
channel
election
food
harley
health
higher
official
security
senior
studio
##ally
##id
##line
##ous
##ps
29
bbc
curry
does
foundation
region
style
tracks
usually
##am
##co
##ving
1980
either
financial
italian
kingdom
list
market
millwall
operations
previously
rest
##ish
artist
competition
construction
decided
full
legal
loss
must
outside
practice
professor
recording
sports
week
##burg
##ft
##ham
##less
1982
andrews
approximately
castle
dance
fire
human
reached
richard
seen
thought
thus
##ver
active
america
census
date
executive
initially
itself
lesnar
prior
social
studied
trade
##rd
1989
associated
child
companies
ever
hill
hours
largest
minister
native
paper
replaced
sydney
##nd
##ors
##ties
1997
awarded
books
federal
helped
hospital
income
junior
lady
me
medal
possible
required
sir
story
tower
writer
##based
##ded
##field
##ld
##ro
2002
500
almost
beginning
behind
carlingford
earlier
films
foreign
grey
im
introduced
money
news
texas
today
##ists
##to
1979
1996
championships
chicago
darts
finally
henry
lewis
ten
wallace
weeks
whose
1993
27
allowed
australian
bill
directed
ended
ground
india
language
location
middle
parliament
racing
scored
spent
subsequently
washington
##ris
1980s
1995
action
champion
countries
cover
fish
forces
go
here
information
leader
limited
moving
nations
our
provide
rights
stations
systems
taking
taylor
tournament
woman
##ca
##den
##ile
##ious
##ned
##ology
50
above
bands
becoming
biography
caused
direction
edge
features
increased
industry
lake
lines
ran
real
sea
##cing
##han
##ite
##ning
##ore
##ue
cadets
chapel
defeated
edward
firm
goal
god
green
includes
ireland
mr
put
selected
star
towards
victory
##ities
##tive
conducted
course
entered
female
females
justice
least
lived
numerous
opening
parts
placed
sign
solo
##11
##hip
##ol
##ut
1984
1994
65
albums
appearance
bay
change
coach
come
finals
greater
ice
le
low
primary
rally
rather
rear
republic
successful
technology
##dy
##ha
##ins
##ks
##ner
amc
better
deal
ham
issues
launched
magnitude
prayer
space
too
##be
##cs
academic
activities
background
character
classic
corporation
families
generally
latter
presented
produce
report
retired
steel
##ber
##nes
##ny
1999
absolute
big
commercial
earned
jewish
killed
lord
median
minutes
negros
network
online
pilot
remains
trial
units
whom
##bs
##der
##ging
##go
##ide
##out
access
canadian
credit
entertainment
flight
graduated
marriage
mill
plans
serbian
##ford
##ir
##ki
##mi
##ped
##ri
1983
1988
already
face
feet
holy
independent
likely
masters
offer
pacific
parents
responsible
significant
spread
terms
wanted
##ay
##ga
##ice
##ire
##mm
##tal
##va
1970s
1991
acquired
annual
arab
baker
below
captain
decision
double
economic
governor
hand
increase
longer
mainly
males
minor
mission
move
musical
peoples
programs
punk
suffered
virgin
zealand
##10
##house
##ral
additional
broadcast
certain
changed
fact
fellow
hills
historical
husband
leadership
lower
majority
material
names
offered
prince
scotland
type
wood
##ad
amx
author
believed
carried
cars
catholic
commission
digital
far
goals
going
honor
households
houses
illinois
leaving
meeting
natural
organization
policy
press
religious
serving
specific
strong
taught
##des
##ding
##hed
##lin
##ram
##ries
1978
1985
beat
blue
close
create
especially
experience
future
jack
might
past
regular
review
running
spain
spanish
striking
structure
turned
your
##ee
##ified
##ings
##ised
##ni
##ster
##wood
assistant
attack
civil
closed
creek
crime
editor
entire
extended
focus
gordon
hotel
month
numbers
operation
particularly
passed
product
smith
supported
test
themselves
##back
am
candidate
china
complete
contemporary
critical
cross
estate
fall
finish
forest
got
keep
las
matches
mostly
noted
oil
platform
prix
projects
property
proposed
revealed
squirrels
traffic
virginia
##berg
##cts
##ger
##med
##ological
##pe
##tors
1968
1970
1990
agricultural
alongside
alternative
asked
border
capacity
coast
creation
feature
materials
means
nearly
newspaper
physical
problems
railroad
raw
related
seasons
shortly
shown
silver
sister
teaching
typically
variety
vegas
##20
##by
##her
##ise
##men
##mon
##pt
##ys
1965
1986
africa
athletes
ballet
brisbane
collections
disease
effect
featuring
felt
friends
issue
japan
legs
nine
ohio
sometimes
stories
surface
valley
wales
##ba
##day
##ya
##ze
1967
45
bank
brothers
call
conference
continues
corps
defeat
distribution
efforts
egypt
energy
floor
frequently
job
key
length
obtained
races
remaining
response
russian
scale
secretary
senate
territory
told
uses
##00
##ined
##time
##wa
1981
1992
1st
adams
baseball
birth
brain
care
cause
charge
chose
cultural
dropped
entitled
find
ford
grew
idea
interview
italy
journal
managed
mary
overall
recent
results
room
singer
weight
wide
word
##ah
##ell
##ence
##ited
##ium
##ric
##sh
##tions
##ying
1957
1971
1976
assembly
branch
bus
changes
chart
clan
dean
failed
famous
francisco
giants
give
hold
intended
knowledge
leave
lives
mile
models
need
operated
payne
plot
premier
promoted
provides
queen
reference
referred
regional
reviews
scottish
setting
staff
therefore
tibetan
tons
true
##12
##ard
##che
##ification
##king
##no
##rate
##sa
1943
64
activity
actor
administration
basis
bell
bridge
cancer
fuel
hearing
highest
influence
listed
offers
p16
pay
poor
pop
senegal
sons
squirrel
standards
subject
wwe
##ative
##ical
##im
##inal
##ization
##ria
1974
1977
200
20th
60
acting
actress
appear
attempt
avenue
baby
beach
competed
contains
daily
defense
density
direct
dutch
earth
enough
greatest
join
marine
master
mixed
particular
planned
plant
port
purchased
relationship
seats
showed
winner
##ast
##ered
##ier
##ize
##j
##li
##lm
##pa
##que
##shire
##tch
##tt
##ua
##ulated
##un
always
camp
caulder
congress
divided
earl
edition
estimated
facebook
faced
fifth
forced
friend
heart
lack
leg
massachusetts
murder
notable
ny117
pieces
presence
prize
reach
removed
saig
separate
serves
singles
things
transferred
turn
unit
urban
##ians
##ition
##ko
##side
##za
1945
1972
african
agreement
architecture
break
cast
cities
columbia
conditions
declared
directly
dr
eca
empire
engines
farm
flying
historic
hope
housing
individuals
lot
nation
nature
nearby
painting
pattern
potential
raised
sector
sixth
smaller
starting
stephen
suggested
tui
##do
##ica
##per
##ular
##ung
##ved
1987
42
accident
attention
bananarama
beating
capital
command
continue
cost
dollmaker
economy
era
exchange
girls
giving
holiday
host
howard
indian
larger
memorial
naval
needed
plan
representatives
safety
sanchez
score
seat
seitz
sex
speed
whole
words
##ai
##ale
##bury
##gate
##hi
##ination
##ji
##op
##res
##tte
##uit
1939
35
70
acts
agent
airport
allow
boys
chairman
commonly
constructed
contributed
establishment
et
etc
except
fans
figure
fine
fishing
gained
global
household
islands
jersey
judge
letter
mountain
multiple
navy
normal
pirates
positive
returning
roman
scientific
serve
shared
sr
steve
sweepstakes
tap
teague
technical
yes
##als
##ans
##ap
##ged
##ick
##ja
##rk
##sed
##tation
##tes
1944
1956
1966
1969
1975
build
buildings
cases
competitions
crew
critics
determined
documentary
flag
florida
gates
highly
holds
jerusalem
kings
method
miss
pass
performances
plays
promotion
queensland
respectively
retirement
shirts
southwestern
status
stone
store
versions
##ator
##ery
##ets
##gs
##istic
##ives
##mas
##more
##one
##rn
##yearold
1958
1960s
1961
achieved
asia
bishop
boston
breed
buried
clear
confirmed
consists
cut
description
draft
faculty
geography
kept
levels
medicine
missed
operating
participated
probably
rail
recently
religion
replacing
scene
search
semifinals
sky
source
subsequent
theory
upper
website
##ates
##ea
##ese
##kes
##ow
##rian
##ture
##ud
##ura
1940
1942
1959
1990s
actually
appearances
attempted
britain
brown
compared
connection
dates
done
drive
duke
employees
ep
facility
forms
gt
immediately
industrial
installed
jr
leaders
marathon
meaning
northeast
northwest
officers
onto
outstanding
perform
person
philosophy
plate
poetry
prominent
protection
replace
ridge
roles
sources
stadium
stand
stop
sunday
temple
tenbury
tradition
voice
##ake
##he
##ics
##ines
##ished
##ked
##ney
##ou
##rated
##sion
##sm
##town
1952
advanced
affairs
aleamotua
animals
athletic
burns
condition
connected
couple
exhibition
fashion
fleet
guest
hands
interchange
iron
israel
issued
joseph
languages
max
maximum
municipal
musicians
muslim
nominated
officially
opera
owned
paintings
politics
portion
primarily
reading
reception
represented
resulting
rugby
russia
saying
secret
something
stakes
transport
unity
value
vam
view
wall
ways
wheat
whether
##02
##ably
##ants
##ats
##bed
##cal
##ctive
##em
##hs
##ight
##izing
##logy
##off
##ood
##rey
##tone
1953
19th
44
80
90
amount
assigned
basic
candidates
classes
concept
concert
corner
criminal
deputy
distance
equivalent
existing
express
fan
formerly
gene
glass
golden
grade
heavy
hour
initial
injury
inspired
johnson
joining
maintained
male
milk
mountains
organized
pennsylvania
reason
recognized
spirits
sport
tartrazine
teacher
text
township
triple
vocals
voted
waves
wesleyan
winners
writers
##17
##90
##cks
##gation
##hire
##ius
##low
##ound
##rating
##sis
##ural
##urs
##vi
1954
34
38
75
ability
ahead
alone
analysis
ancient
arrived
bought
box
campus
clock
composed
contributions
converted
dead
desert
discovered
dog
dogs
effects
engineering
equipment
facilities
formal
fort
girl
hosted
importance
joint
marked
metcalfe
missouri
nancy
ogilvy
opposition
page
paid
parish
prime
principal
publications
quickly
receive
representative
residence
roof
says
schneider
scoring
shape
simon
squadron
stopped
takes
titled
titles
tony
towns
transmission
twelve
typical
unique
universities
vietnam
visited
weekly
widely
wing
wrestling
##15
##16
##18
##ability
##ain
##cies
##ett
##fied
##gar
##gen
##ied
##ily
##ising
##its
##light
##nal
##night
##ron
##rt
##ses
##ul
##use
##ward
##well
1948
1973
abandoned
accepted
anniversary
astor
basketball
batman
beer
chiefs
christmas
claim
comedy
communities
completely
crosses
dab
damage
difficult
districts
expanded
fc
grounds
hockey
hunter
ieyasu
individual
interior
irish
islam
jim
junction
label
losing
membership
metres
mexico
missionaries
nathan
occupied
oregon
owner
passes
patrol
pelli
province
quality
regularly
relations
reserve
resort
rockefeller
serbs
shop
sought
spring
squad
ties
travel
uefa
victims
worlds
yet
##60
##cted
##di
##ew
##gal
##gh
##inary
##lt
##mer
##nts
##our
##ption
##ship
##ters
##tz
##ven
##vis
##worth
1941
1962
abbey
adopted
agency
al
approach
arrested
ball
block
blues
cattle
cell
childrens
christianity
degrees
democratic
den
didnt
door
drama
ecw
elections
extensive
feast
finishing
follow
founder
graduate
growing
hamilton
hitting
hudson
islamic
look
magic
mayor
meant
mount
novel
olympics
ordered
passenger
patterns
percent
politician
provincial
purpose
reform
refused
renamed
resulted
rice
sciences
sell
sessions
specifically
switzerland
teachers
think
vehicle
vocal
weekend
williams
##ade
##ana
##car
##cle
##ens
##ess
##inated
##mar
##mes
##mo
##om
##over
##port
##ray
##ren
##rus
##ury
##view
1906
1937
1946
1963
32
400
62
accounts
afterwards
alumni
angle
appears
attempts
berlin
boats
broke
captured
card
category
cdp
chair
chinese
chronicles
chuyi
color
computer
courses
crossing
develop
doctor
electric
evening
extension
fathers
focused
funding
gain
gallery
identified
immigration
impact
insurance
internal
laboratory
laws
leagues
learning
makes
mcardle
melbourne
michigan
mike
newly
panels
peace
performing
phil
piece
premiership
pressure
prison
publishing
read
reports
rose
rule
rural
santa
stock
table
trail
tree
turner
victoria
wars
winter
##13
##25
##45
##and
##ath
##bo
##ched
##ees
##ig
##ina
##ining
##kins
##like
##million
##ot
##ress
##ti
##tial
##tory
##ugh
##une
##ures
1914
1918
1947
1950s
300
52
agriculture
assists
bass
bilinarra
boat
challenge
champions
channels
content
credited
customers
dark
dedicated
destroyed
doctrine
doing
drawing
ear
ends
enter
entirely
entrance
entry
environment
expected
fields
fox
fully
grant
guitar
houston
inaugural
increasing
internet
jane
lands
let
meet
message
mexican
nukualofa
objects
olympic
opportunity
partner
phase
producing
quebec
quite
ranked
rise
saint
ship
stars
studios
sugar
supporters
surrounding
theater
tonga
tried
ultimately
unable
underground
unknown
unlike
window
workers
younger
yugoslavia
##79
##88
##cia
##ction
##head
##iles
##ils
##isation
##ky
##len
##lic
##nted
##rin
##set
##sk
##uring
##zed
1900
1938
33
37
5th
aaron
alliance
allows
argentina
attacked
attend
authority
barneveld
boy
brand
bring
broken
caught
chapter
chris
comes
commander
commissioner
committed
consecutive
dancing
defeating
die
elizabeth
expressed
faith
filed
founding
granted
gremlin
heard
imperial
largely
legislature
machine
marl
marys
meat
monorail
netherlands
observed
oldest
organizations
origin
partners
places
presidential
priest
publication
reduced
regiment
resources
rounds
scales
sets
settlement
seventh
simple
situated
somewhat
statement
territories
vancouver
volume
worth
yellow
##92
##ane
##ang
##bert
##cular
##ents
##gan
##ges
##ible
##mp
##rain
##rity
##ye
1912
1930
aid
aired
allstar
angel
anne
applied
arms
asian
aspects
attitude
attorney
bedford
begins
bottom
capture
cells
churches
collected
coming
complex
composer
concerns
concluded
consisted
cotton
creating
dam
datum
directors
dont
drivers
edinburgh
effective
fame
fell
follows
formally
formation
genus
headquarters
hits
hundred
ideas
iii
institution
invited
items
kentucky
lane
launch
lieutenant
literary
literature
madrid
mariano
marketing
ministry
oakland
owners
palace
pennant
plants
poverty
prosser
providing
rejected
represent
republican
roger
screen
sides
someone
studying
successor
super
tests
tied
tom
twenty
twice
types
universitys
views
willcox
yours
##14
##ean
##ened
##iding
##ill
##ino
##ix
##lers
##let
##lly
##ming
##mous
##nia
##old
##ple
##ras
##ror
##ss
##tics
##ulate
##ume
##wi
##zi
##zing
1916
1936
2nd
achievement
alexander
appeal
attendance
barry
beyond
billion
breaking
bureau
citizens
claiming
collaboration
combined
count
deep
defined
des
designs
detroit
driver
driving
earliest
eighth
enrollment
format
freedom
freeway
getting
growth
guard
helping
humans
inside
instruments
introduction
japanese
jones
know
leaves
leonard
martin
measured
metro
monday
morning
movie
muslims
needs
nor
officials
option
ownership
passing
pdc
permanent
plane
planning
proved
purchase
question
racial
rate
refers
relatively
reporter
representing
resigned
ring
routes
row
scenes
selling
settled
singing
situation
storace
streets
supporting
target
tells
terry
transportation
treatment
trying
usa
vehicles
versus
vote
wheel
##49
##87
##aa
##bi
##century
##date
##ella
##gers
##ho
##iling
##ip
##lies
##logical
##long
##od
##ond
##ong
##ree
##ribute
##ules
##wing
##ws
##zer
1919
43
4th
accept
actors
admitted
alleged
allowing
animal
attending
ben
blood
brigade
butler
canal
celebrated
centuries
chamber
charged
chegwin
chosen
cleveland
co
code
constituency
controls
demonstrations
developing
diana
documents
doom
douglas
drug
earthquake
economics
educated
egyptian
eliminated
emergency
environmental
escape
everything
extra
falls
foot
formula
frank
graveyard
harris
hollywood
hot
improve
incident
initiated
jazz
jean
liverpool
maintain
marks
meetings
mentioned
merged
metropolitan
monument
moscow
object
orchestra
painted
parties
pbs
personality
philadelphia
plus
powerful
premiered
programme
rare
reasons
remain
replacement
resistance
seconds
session
sites
southeast
soviet
split
sponsored
starred
stay
stood
succeeded
surviving
threat
tiger
toured
trim
trophy
umtiti
vice
walls
weapons
wild
wright
##06
##21
##50
##71
##75
##80
##85
##af
##ak
##all
##ators
##bel
##ctions
##ene
##ern
##ient
##ira
##jo
##kg
##lle
##mond
##rable
##room
##rum
##ser
##si
##tary
##teen
##uis
##vised
##west
##writer
##yer
1901
1913
1926
1927
1928
1933
1955
250
63
acadians
accompanied
achieve
ad
address
affected
aged
agreed
andrew
application
assistance
atlantic
averaged
baron
biggest
boycott
bypass
cape
casino
causing
cemetery
centering
characters
claims
clocks
colonel
conservative
constitution
controlled
coverage
covered
data
derived
diaries
distinguished
document
domestic
drew
effort
epcot
episodes
figures
folk
fought
functional
funds
geelong
harvard
identity
illegal
independence
influenced
intelligence
interests
investigation
jackson
kanokupolu
knew
latin
learned
letters
lies
lifeboat
liggins
lions
makeup
maria
mens
missionary
mrs
munsa
notably
occasionally
offices
ones
painter
peak
peters
picture
poems
poland
protest
qualify
rack
ralph
raymond
refer
safe
sale
secondary
seeing
segment
semifinal
ships
shot
sounds
spoke
strategy
switch
troops
vi
villages
violence
waiting
warriors
wind
write
##19
##ara
##au
##bility
##cated
##dale
##don
##een
##ender
##ening
##ever
##gn
##hood
##ibility
##ini
##ique
##iting
##mann
##nation
##nded
##non
##ock
##rc
##rich
##row
##speed
##ust
##ux
##vers
##ware
##work
1910
1917
1920s
1950
46
53
61
71
85
accused
achievements
adapted
alabama
alberta
americans
amongst
appearing
apply
approved
arrival
arthur
auto
bates
beautiful
benefit
bronze
charity
chemical
childhood
closer
coastal
collective
commissioned
copa
crops
dagron
daughters
defence
display
draw
du
enjoyed
establish
extensively
failure
funded
furniture
gardens
gary
gone
greek
guardian
guide
guilty
hawks
heads
herbert
historian
holland
incorporated
inner
institutions
interested
iowa
johns
killing
kind
klug
leads
liz
lose
manchester
manual
mastiff
metal
middleweight
morton
mvp
notes
occupation
operate
orange
panther
parking
perhaps
photographs
pittsburgh
polish
populations
possibly
powered
prevent
problem
progress
publicly
ratio
reaching
reality
receiving
regions
responsibility
revolution
rich
sat
seismic
share
shirt
significantly
skills
stages
successfully
surgeon
survey
tall
tennessee
theme
thereafter
transfer
transit
tries
turns
visit
wade
ward
watson
why
winters
worldwide
writes
youtube
##27
##40
##52
##53
##70
##93
##air
##ano
##ase
##ather
##ec
##ection
##end
##eria
##ias
##ich
##iled
##ington
##ional
##ita
##ker
##lan
##law
##mate
##nic
##nie
##ok
##ord
##race
##ried
##rier
##rry
##stic
##stone
##uel
##uing
##vation
##wan
1864
1898
18th
1911
1949
1964
3rd
acres
advice
afonso
alan
apart
approval
argued
articles
attacks
audience
austria
beaten
behavior
biological
boeing
cab
cadet
canarese
cards
carlos
closely
communications
conduct
consisting
contained
copland
couples
critic
damaged
del
depending
describes
details
dream
dresden
easter
employed
engineer
entering
errors
factory
finding
forward
frederick
function
gear
guy
habitat
headed
hero
indigenous
inhabitants
instrument
invasion
investment
jeff
joe
jon
journalist
kidnapping
langley
learn
legislative
liberal
loomer
luxury
lyrics
markets
mechanism
methods
milwaukee
mississippi
mix
moment
nba
necessary
negative
nixon
nuclear
opinion
optional
orthodox
oxford
partnership
positions
posted
properties
publishers
qualifying
rated
really
references
reid
require
rescue
researchers
retained
risk
rko
sam
say
sections
seems
serious
shore
smart
speak
speech
starts
steen
steering
stein
string
subjects
sun
survivors
testing
trust
undergraduate
vincent
walter
web
wooden
yeovilton
##07
##31
##81
##91
##ada
##american
##ars
##ata
##ature
##bound
##bow
##ces
##ches
##down
##ering
##ez
##fe
##fit
##force
##ids
##ify
##ii
##ik
##ike
##ime
##ink
##kw
##lation
##lla
##lled
##lo
##omy
##onic
##ony
##oo
##ored
##ory
##point
##ques
##roke
##sts
##teenth
##truction
##uff
##ured
##urse
##vin
##vy
##wer
##wick
##yan
##zen
10th
12th
150
1859
1894
1915
1920
1931
1932
36
54
acid
andy
assisted
associate
automotive
aviation
baldwin
bar
birthday
blatteis
bondss
brazil
broadcasting
calling
ceased
chance
colors
com
compete
contact
covers
creative
crisis
dave
demonstration
departments
discovery
donated
drawn
earthquakes
easily
electronic
enters
existed
farmers
fast
federation
firms
focuses
garden
guests
gun
hired
ian
imports
indiana
industries
innovation
inspiration
interstate
jobs
journey
julia
landing
lear
lineup
looking
malcolm
marsh
memory
memphis
mode
narrative
nomination
norway
occurred
occurs
opposed
organ
organisation
peanut
pick
pitch
politicians
postal
powers
productions
proposal
protect
qualified
quarterfinals
rating
recordings
recovered
reed
requires
residents
respect
restored
roads
rooms
rules
sajer
salt
sample
sarah
save
scholars
scholarship
scott
semester
senegals
showing
sloan
speaking
stamps
strongly
talk
tax
thousand
trouble
understanding
wallaces
want
wave
wear
wilde
wilson
worship
writings
##01
##04
##22
##43
##48
##89
##94
##ack
##ald
##amp
##atch
##bit
##born
##ced
##class
##door
##els
##ending
##fm
##gun
##gy
##hl
##hp
##imate
##ivity
##lls
##lock
##mic
##nders
##ography
##ologist
##otic
##py
##rising
##rose
##sar
##so
##table
##ten
##ther
##tical
##tus
##uck
##ull
##ute
##war
##wich
##wise
##zes
##zon
14th
1861
1865
1895
1922
1923
1934
39
48
6th
72
74
87
account
algorithm
apparently
artichoke
attached
authors
automatic
calls
carry
casement
causes
charter
chess
circuit
cited
climate
clinical
cm
commonwealth
constitutional
consumption
continental
contribution
convention
davidson
decade
demographics
designated
desire
dfsk
eleven
elimination
erected
experiences
fighting
finance
greece
grown
guns
hard
hong
improved
involvement
jury
kim
latino
lee
legacy
liftback
louisiana
mass
mb
michel
mining
mothers
mt
natalia
nicholas
norwegian
ocean
offering
opponents
orders
oscar
parkway
parramatta
participate
piano
portugal
quarter
recognition
reduce
regarded
reportedly
residing
revised
sales
scheduled
sense
shenandoah
sing
slightly
slot
sponsors
standing
stating
struck
suffering
symptoms
toward
travelled
treaty
trees
tubou
tupou
turning
un
uncle
users
vienna
vietto
visiting
vocational
von
warren
windows
##24
##41
##97
##ail
##ama
##ax
##cc
##cher
##cting
##ctor
##dia
##eel
##ely
##eration
##fa
##feld
##gin
##graphy
##hour
##iate
##iation
##ico
##ided
##iel
##ken
##lines
##list
##ners
##nne
##ogue
##oke
##olved
##oot
##ort
##ose
##oy
##pect
##pression
##pur
##right
##rio
##sen
##sive
##sy
##uity
##und
##unt
##urn
##urst
##urus
##used
##uted
##vina
##wards
##ways
##where
##wn
1896
1903
1905
1907
1929
1935
1951
49
51
86
addressed
adenoid
adult
alfred
anything
approached
architect
arranged
atlanta
bachelor
bad
becomes
bees
bodies
bottle
breeds
brooklyn
bunt
cabin
capita
cash
catharine
changing
choice
communication
competitive
conflict
congregation
containing
countess
croatia
debate
declined
device
donald
dual
elder
element
elements
employment
en
enemy
eric
error
examination
exhibited
expression
extreme
extremely
factors
fair
favor
fee
festivals
fiction
filled
fitted
followers
fulltime
georgia
graduation
granite
grave
guild
hamburg
harry
height
herald
heritage
honours
horse
hundreds
immigrants
instrumental
intention
iraq
iv
jesus
kennedy
khyongla
larry
locations
mackerel
mathis
measure
measures
methodist
mine
missing
mitchell
modified
montenegro
mp
nat
nbc
newspapers
nice
nigeria
norman
occasion
opposite
osvs1
pain
panel
participating
participation
peninsula
persons
pictures
playoff
poet
poltergeist
popularity
portland
pounds
presidents
programming
promote
pursue
railways
rato
recommended
regarding
request
resolution
rivalry
rob
roots
rudolf
samples
selection
senator
signature
soul
soundtrack
springs
stayed
stewart
storaces
storage
supreme
surgery
suspended
tell
tokugawa
tool
traditions
trained
trip
trips
try
twa
variant
volunteer
wayne
welterweight
wins
withdrew
youngest
##03
##09
##29
##36
##46
##66
##67
##72
##ages
##aking
##aries
##berts
##bism
##case
##chard
##ching
##cm
##fully
##gated
##gi
##gue
##gus
##hips
##hy
##inate
##iot
##ird
##itive
##ived
##izers
##lands
##lie
##lu
##lying
##matic
##minster
##mission
##mph
##ncy
##nge
##of
##onymous
##pin
##posing
##pp
##pressed
##quire
##rative
##rch
##ret
##rick
##sc
##sing
##take
##tent
##tle
##tv
##ually
##ude
##uses
##uts
##van
##water
##writing
1000
105
1878
1899
1909
1921
1925
80s
acoustic
actions
actual
advantage
advertising
advisor
aleamotuas
allen
ambassador
ann
annually
appeals
applications
arizona
armed
assumed
baptist
batting
belgian
bellator
billboard
blocks
blog
bomb
boucher
boundary
bringing
brooks
bros
buchanan
businesses
cancelled
cannot
carbon
citys
colleges
companys
compilation
conard
connecticut
continuing
contrast
cook
curves
czech
dangerous
daniel
danish
debuted
decline
denmark
dennis
departure
designer
divorce
divorced
dollars
domain
doubles
drum
duty
easy
educational
executed
existence
exists
eye
fa
fear
feed
feel
fighter
fred
fund
gay
gets
goes
graham
groove
guitarist
hair
handed
happy
harleys
heavily
herself
hispanic
historically
holding
householder
image
integrated
inventory
jan
jos
juan
karnal
kill
kingston
kong
labels
lay
loan
louis
louise
maintenance
managing
meanwhile
meets
minimum
minute
mobbs
mobile
montreal
motion
neither
nose
note
options
pair
papers
parallel
parker
path
periods
phone
physics
picked
planet
platforms
premiere
prepared
presentday
processing
producers
protected
qualifier
raise
rank
reelected
reign
releases
relocated
requested
requirements
reserves
residential
restoration
resumed
robbins
romantic
roosevelt
roughly
russell
saeed
sang
scores
secured
send
severe
simultaneously
sisters
soil
southwest
stands
supposed
survived
teach
teen
televised
tested
thinking
throw
topics
touring
tranquility
travels
ukraine
uruguay
wake
wearing
widespread
woods
yu
##44
##74
##83
##84
##95
##96
##active
##ae
##ala
##ark
##art
##ational
##ball
##ban
##bc
##bers
##bia
##bited
##body
##bor
##cate
##chester
##cus
##ders
##dp
##elia
##ert
##ests
##fected
##fl
##ghan
##going
##grade
##gular
##hes
##hop
##ican
##ience
##ift
##iring
##itation
##itor
##iv
##kers
##lay
##life
##lized
##lone
##lution
##maker
##mation
##menting
##nding
##nn
##ntine
##og
##ola
##ool
##ote
##oto
##ph
##place
##posed
##pted
##put
##ran
##rie
##sia
##story
##strate
##type
##ued
##uin
##ule
##ult
##una
##uous
##upe
##using
##val
##vision
101
13th
17th
1862
1893
1924
1960
600
67
77
83
90s
adding
adelaide
agencies
alex
anthony
athens
barcelona
begin
benefits
bewdley
bit
boards
brevard
bright
broadway
cable
cambridge
carrying
cd
chancellor
characterized
chicken
clark
clothing
coaching
communist
confederate
confused
consider
considerable
context
copies
crash
cream
credits
criticism
crown
cruise
custom
customer
cutler
dancer
dating
democracy
demolished
demos
depression
descendants
designation
dispute
doors
drugs
duo
dvd
edited
editions
emperor
equipped
evaluation
expansion
exports
extend
faces
falco
fit
fixture
fun
galea
gate
gerwens
gibraltar
hd
heat
hes
holmes
honors
indicated
injuries
intensity
invisible
iran
judicial
keeping
kent
kilometres
korean
kormoran
labour
ladies
lap
limits
literacy
livestock
locally
lutheran
lyon
manufacturer
manufacturing
map
maryland
measurements
mesh
miami
minnesota
monster
muhammad
museums
musician
ninth
nonfamilies
nothing
nrl
oklahoma
ordinary
package
passengers
personnel
perspective
ph
placing
pro
processes
provision
questions
radiation
represents
reputation
roberts
ross
saucy
saved
shopping
siege
simply
skor
slave
socialist
soyuz
spoken
spot
spreading
straight
successive
sufficient
supporter
switched
talking
tas
techniques
telephone
tibet
tokyo
tours
toxicity
translated
treated
trinity
trio
usaf
usage
visual
walk
watch
weapon
worn
zone
##0km
##28
##30
##76
##77
##82
##86
##99
##action
##ag
##ait
##alog
##arian
##ased
##asing
##aw
##bie
##bis
##book
##borne
##built
##chen
##chor
##cious
##cles
##coming
##dder
##dered
##dle
##ef
##ei
##ended
##eo
##face
##fer
##gent
##gida
##haw
##heed
##hic
##hill
##idden
##iers
##iment
##iots
##iss
##ites
##itz
##ivated
##kmh
##known
##lair
##las
##lb
##lect
##lity
##logic
##lour
##lter
##mile
##mit
##my
##nance
##ntal
##ographic
##oma
##ome
##onym
##ora
##plicated
##pped
##q
##rations
##rence
##rest
##rid
##ride
##rons
##sat
##sel
##sex
##stage
##sters
##style
##taining
##tized
##track
##uary
##ues
##ug
##ui
##uk
##urage
##urated
##vic
##vo
##wen
##wide
##winning
##yas
##yed
1883
1885
1897
1930s
admission
adrian
advance
advocacy
advocate
affiliated
afh
afrotc
airborne
airlines
albania
arabic
aside
assault
athletics
atltico
attributed
bachmann
bailey
ban
bars
bed
beliefs
believe
blade
blocking
borglum
boulevard
bristol
campaigns
cap
carl
carnegie
carries
carter
cartridge
catch
characteristics
charges
chemistry
christ
circle
clay
cold
colour
colours
combat
combination
competing
concerning
concurrent
connect
connections
conservation
consultant
contest
controversial
cooper
corridor
costs
costumes
courts
criticized
cultivated
cycle
da
dakota
dall
decades
delivered
denied
der
determine
downtown
drummer
dry
dynasty
ensure
ethnic
evil
examples
excavations
exhibitions
export
exposed
feeling
feminist
fixed
flat
fm
frame
frankfurt
gang
gap
gives
glasgow
governments
gray
happened
hebrew
hms
honour
hypothesis
ill
imported
inc
increasingly
indicate
infantry
jacob
joshua
josiah
kelly
kevin
lance
latest
lengths
liga
lighting
linked
looked
machines
matter
minority
monastery
mouse
mouth
municipality
mural
newcastle
nguyn
nick
nickname
nord
oai
oak
oliver
operational
oriental
otherwise
pakistan
parry
performers
permitted
pioneer
pleasantville
poets
policies
portuguese
preserve
prestigious
prices
quiet
rarely
recognised
relevant
restaurant
reverse
rival
roll
rotax
ruled
ruling
saturday
schrader
sexual
shock
shooting
signing
silk
sitting
skin
solid
spaces
spend
stirling
strength
stripes
structures
stuart
styles
subdivision
subsidiary
teeth
terminus
thick
threatened
translation
trials
trump
upton
usual
veterans
viewers
visitors
vs
walle
wang
warden
warner
wasnt
wheels
widow
wrong
yang
##51
##55
##73
##ace
##ach
##ains
##are
##arked
##ason
##bing
##bly
##bridge
##cca
##ci
##cking
##cluding
##com
##cript
##culated
##dom
##dorf
##eat
##ect
##ector
##egation
##elation
##ember
##eud
##fb
##ference
##fy
##ght
##horn
##iden
##ilities
##lets
##level
##lia
##lined
##loo
##losure
##made
##mber
##mos
##most
##mouth
##ndent
##nis
##nting
##oc
##oi
##olk
##ona
##oning
##osing
##outs
##pan
##pass
##pers
##plain
##plies
##po
##rett
##rge
##rman
##rp
##ru
##sqmi
##tachment
##tain
##team
##tered
##term
##ube
##uds
##ula
##ush
##ution
##zo
11th
120
16th
1876
1908
57
700
additionally
afl
aimed
airfield
albert
allan
allied
angels
animation
artwork
attracted
auction
audio
availability
avoid
axel
axis
bacteria
baptised
baronet
basin
bayonet
belbinagosto
belvin
bob
bodeans
bosnia
brass
bruce
burned
bush
cabinet
capable
cathedral
celebration
ceremony
chilton
chomutov
circumstances
clinton
codex
collar
columbus
commented
compiled
composition
confidence
connecting
consequences
conspiracy
constant
contain
contemplative
controversy
core
corporate
counseling
crimean
customs
dallin
danny
declaration
defiance
difficulty
discussion
diseases
distinct
distributed
divinity
divisions
dramatic
drinking
drop
effectiveness
el
emerged
essay
essex
etymology
everyone
exclusively
expanding
explained
fairly
fare
favorite
favourite
florence
fr
francis
freight
fremantle
fresh
friendship
fruit
gaining
gathered
gathering
ghost
gifford
gift
goods
gothic
graduates
grandfather
graphics
greatly
halt
hammers
helicopter
hennig
hip
hole
hosts
hunters
i880
ibm
illustrated
implementation
inches
injured
instructor
involving
ive
jamestown
jennifer
jordan
kansas
kidnapped
korea
laboratories
lasted
lawyer
licensed
lifetime
link
liver
mainstream
maker
margin
massive
medium
mention
merit
merlin
mohawke
moments
monthly
moreover
motors
movies
mystery
neighbouring
networks
neumann
nevertheless
normally
notice
operates
opponent
origins
oval
participants
passage
penalty
perfect
photographer
physician
pitcher
practices
pradesh
preferred
price
printed
provinces
publisher
queens
radiocarbon
ray
ready
registered
remote
rifle
rising
rodenstock
rodrguez
rome
scholar
scientist
seeds
seek
shares
shift
slaves
slowly
software
specialized
springfield
stem
steuart
stmpfli
strike
structural
submission
sue
superior
supplied
surveyed
survival
sweden
tail
technique
temporary
theft
thirty
thunder
toronto
touch
traveled
traveling
trench
truck
twin
upgraded
varied
vessel
votes
waters
whilst
witnesses
woodward
##00s
##38
##61
##69
##70s
##90s
##aids
##ancy
##atic
##away
##bahn
##band
##board
##borough
##bra
##chi
##cise
##come
##con
##cuin
##dal
##dart
##eason
##eer
##enal
##ently
##eral
##erry
##flower
##friend
##fs
##gg
##gree
##hen
##hester
##ically
##ifications
##illed
##inations
##inch
##iology
##ires
##iser
##ishi
##izes
##keeping
##lai
##lance
##lar
##late
##lew
##linder
##lings
##lining
##lis
##lley
##lore
##love
##mans
##mark
##master
##minal
##nced
##nell
##nist
##ograph
##ois
##olated
##oly
##omic
##ously
##pg
##pire
##press
##raced
##rading
##range
##rat
##rates
##rator
##rder
##rectly
##rical
##rooms
##ros
##round
##rous
##sian
##sides
##space
##stance
##tally
##thy
##tta
##tter
##tto
##uated
##uber
##ucci
##ulf
##umor
##ups
##utical
##vations
##vent
##vest
##via
##vor
##vs
##wed
108
117
1863
1882
1889
1904
41
58
630mm
68
69
800
92
93
95
ab
accessible
adjacent
aftermath
ages
agosto
aims
alltime
amcs
announcement
antwerp
array
aspect
assist
associations
banks
barbara
bases
battery
bear
behalf
belgium
blades
blythin
bobby
brian
bricks
briefly
brightman
brock
budget
bull
canoe
centers
ceo
chadwick
chaired
chambers
chancel
charlie
christopher
civilian
closing
column
comics
concentrated
concern
concerned
concrete
contracted
corn
coromandel
counties
counting
cousin
covering
crop
curator
currys
curtis
dan
dart
dbendorfer
defended
depicted
describing
devils
dialogue
diameter
dominated
drums
dubbed
dublin
duties
eagle
easier
emerging
emphasis
ending
engaged
engagement
enlarged
equal
evaporation
exchanges
exclusive
expert
explains
exposure
eyes
fabric
factor
falling
farms
favour
fill
filmed
flow
footballer
forming
fremont
gas
generation
genre
golf
governors
graph
hell
hihifo
homes
honorary
httpswww
hugo
illness
imagawa
immediate
immigrant
infection
influences
instruction
interviews
jail
jews
jockeys
jurisdiction
justin
kenyon
knights
knocked
kurt
les
longest
longtime
ltd
luter
magnitudes
mcmahon
mean
melodies
mid
miloevi
mineral
ministers
monkey
moore
morgan
namely
nascar
nave
neil
net
nonprofit
objective
occidental
occur
organizational
oslo
palmer
parliamentary
parttime
patients
peanuts
philip
philippines
philosophical
playoffs
poem
ponsonby
pope
portrait
postgraduate
preparation
presentation
princess
print
promise
protests
purposes
questioned
radical
rapid
recall
reflected
rehabilitation
relative
remarkable
republika
retreat
revenge
rightwing
rivals
rivers
romy
ropes
roth
salvators
satellite
schedule
scientists
sculpture
sedan
seeking
select
sentence
separated
signal
signs
sit
skating
slavery
smackdown
solutions
srpska
stanley
stepped
stern
strip
submitted
summary
summerslam
tacoma
talent
task
teammates
temperature
territorial
themes
theodore
theology
thousands
ticket
tim
tobacco
tommy
tongan
traditionally
truemper
unification
universal
valuable
vams
variants
vary
vessels
videos
visible
vision
vol
wakeman
walks
wider
wisconsin
wolf
wounded
yale
##05
##0s
##23
##35
##62
##63
##98
##acher
##aged
##aging
##ali
##athy
##atory
##aving
##bar
##bas
##beck
##bling
##bone
##break
##brook
##cht
##cture
##culation
##dam
##dation
##dd
##dicating
##dies
##dot
##eed
##ek
##elf
##erg
##ero
##erton
##eth
##ex
##fic
##fortable
##game
##gging
##gic
##gro
##gues
##gulation
##hest
##hit
##hr
##ials
##ierre
##ika
##ild
##ilton
##inating
##ind
##inger
##ingly
##ioned
##irn
##iro
##itable
##lag
##lated
##lder
##lights
##lingen
##llar
##ln
##loss
##lve
##matical
##mberg
##mble
##mbled
##mbo
##mensional
##minute
##mother
##ncing
##nel
##nity
##nnes
##oa
##ole
##olen
##onia
##oom
##ories
##oring
##ounded
##ov
##ovo
##owned
##pair
##part
##phere
##pic
##pores
##ppers
##print
##pse
##pts
##pu
##rad
##rapped
##rect
##rection
##related
##rial
##riot
##rm
##rma
##rove
##rri
##rvin
##scription
##season
##see
##sey
##star
##tar
##tc
##tel
##tine
##titude
##titute
##try
##tting
##tu
##uard
##uation
##ub
##uming
##urt
##uther
##von
##wat
##win
##woods
##wr
##xon
##yi
##zation
01
103
1795
1826
1830
1837
1856
1940s
494
5km
88
8th
98
abc
aboriginal
abstract
abuse
accompany
administrative
affair
agnes
ai
airspeed
akerman
alive
allies
alpha
amplitude
andriamampandry
apartment
archbishop
archive
arrest
ask
assessment
associates
auditory
autobiography
bachelors
baptism
beam
benjamin
bible
bid
birds
bitap
blacks
borough
bossis
bottles
branches
breeders
breeding
bucknell
businessman
buy
cave
cecil
celebrations
centres
challenged
challenges
charleston
chelsea
christians
churchill
clash
clean
coaches
coal
comeback
comic
commerce
completing
completion
components
compositions
concepts
concerts
condemned
contributing
convinced
cornwall
countrys
courier
cowboys
cricket
crust
cutting
damascus
deals
deciding
deemed
democrat
destruction
diamond
diet
dietrich
diocese
disabled
dolls
drafted
driven
earning
electrical
eligible
essentially
exact
experimental
extent
fabrics
fictional
filly
fired
fishermen
flowers
focusing
fork
founders
fruits
furthermore
gabriel
gabrielle
gameplay
gavrielov
gerry
graduating
haltern
harbour
harold
heidsieck
holdings
horn
illustrations
inn
installation
internationally
investigated
investigations
ironworks
jenna
jessie
jet
journals
kidney
kinch
knots
laid
lavelle
leased
legend
leigh
lets
loved
lp
malta
manner
manufactured
marble
matchplay
mathematics
matters
mearns
measurement
measuring
michelle
mighty
moderate
mounted
movements
nacep
naming
ne
neighboring
nevada
newton
organic
organised
orlando
oswestry
ottoman
overcome
pace
paint
partly
partnerships
paulo
percentage
personally
piedmont
pigeon
pistol
planck
pleasant
pool
portraits
portrayed
posts
practical
prairie
praised
predominantly
preliminary
prevalence
princeton
principles
printing
prizes
procedure
profile
protein
pulled
qatar
quartet
rainfall
rangers
rapidly
reactions
readers
rebounds
recovery
recreation
regulations
relationships
remainder
removal
remove
repeated
representation
resident
resignation
respective
rev
revival
rick
rnas
robin
rocks
rookie
roy
ruins
sacred
samuel
scorgie
searching
sees
sequence
serb
serial
shall
shallow
shanghai
shoulder
shut
sights
sleep
socalled
soccer
soldier
soldiers
sopkin
sort
southeastern
speakers
starring
statements
steals
step
strategic
struggled
subspecies
substitute
suggest
sundberg
superintendent
supply
supports
susan
swiss
tank
taste
thanks
thrown
tissue
titans
towers
transition
truth
turkey
tutti
und
universe
v8
venture
venus
virusbuster
viscount
vogt
walking
warning
wealthy
whatever
wilderness
wildlife
yesco
zoer
##08
##26
##34
##54
##64
##abad
##ac
##acon
##act
##acy
##ading
##ads
##ague
##aked
##ame
##ampton
##ancing
##ani
##anical
##ao
##aven
##ayed
##backs
##bai
##bl
##bn
##books
##burn
##bus
##cape
##cation
##cer
##cian
##cide
##cked
##clusion
##die
##du
##eam
##edly
##egina
##ela
##ele
##emen
##enburg
##enny
##fest
##ff
##foot
##form
##gali
##gator
##ggie
##ggs
##gne
##heim
##hore
##iable
##iary
##ibbons
##iche
##ida
##ield
##igan
##igate
##igned
##ilda
##illa
##imated
##ively
##izer
##jing
##junction
##kin
##kistan
##lab
##lash
##lav
##lea
##league
##leton
##lified
##lities
##llah
##llegiate
##lon
##longing
##lse
##lton
##lus
##lved
##mail
##making
##mens
##mentary
##mented
##minate
##mis
##mn
##mobile
##mont
##nas
##ngo
##nner
##nning
##nter
##ocks
##ode
##odon
##ographer
##olet
##olin
##olis
##olly
##onal
##onda
##oping
##opy
##orse
##ough
##ows
##pai
##pective
##piece
##pit
##plemented
##plied
##pm
##porate
##printed
##ptor
##ptors
##quest
##rams
##rators
##ratory
##rbed
##rel
##rent
##ricted
##ridge
##riers
##rina
##rth
##rupted
##sbury
##secution
##sha
##sized
##sman
##spoke
##stein
##steries
##ston
##the
##timate
##tons
##tos
##tric
##tsu
##ulating
##ulation
##ultural
##ums
##ungary
##uo
##urate
##utes
##uth
##utor
##vert
##vil
##voir
##welling
##wh
##xed
##ynn
##zu
##zz
106
110
113
114
130
15th
1796
47
55
593
66
73
750
aboard
accessories
accommodation
accomplished
accreditation
acted
activist
affect
aging
ago
alternate
americas
ammunition
andersons
anglican
announcer
anyone
appointment
appropriate
arena
arrive
asllani
assets
astra
athlete
austrian
authorities
averaging
aycock
backing
bangalore
batted
bc
behaviour
bennett
beverly
biblical
biddy
boundaries
breaks
brief
bruno
bryce
buddhist
buer
bulk
buses
camera
canterbury
careerhigh
caroline
catherine
char
charvets
chisnall
choose
churchyard
classics
clich
clients
cliffs
clinic
coastline
cohen
colleagues
colorado
commons
compensation
component
comprises
concord
confronted
consist
console
construct
contested
conversion
cops
crowd
dabbl
deaths
decay
decide
decorated
decrease
defensive
definition
delaware
demand
demanded
democrats
depicting
desired
detailed
di
dick
differences
discontinued
discussed
dismissed
displays
distinction
distinctive
diversity
divisin
dj
documented
dollhouse
dominant
downes
earn
efficiency
electoral
elevated
else
encountered
enforcement
engineers
enrolled
eradication
essen
estimates
eventual
exam
examined
examiner
excellence
excess
exhaust
expedition
expensive
experiments
external
facade
fifa
fin
finds
fip
flights
flows
foods
foundations
fraud
friday
frontier
frutti
funeral
funny
georges
germans
gorgopas
grace
grades
gradually
grandson
grille
harbor
hear
hearts
heir
hence
hercules
heroes
homer
huge
hunt
i185
id
ieyasus
images
improvements
informed
inherited
initiative
interviewed
invented
inventor
investments
involves
itsec
jakey
jerry
jimmy
jonathan
julie
keith
kukuraja
lancaster
landmark
lansford
lao
legislation
leonards
lexical
libraries
librarys
limit
lira
lisa
lists
liturgical
lords
losses
luis
luke
luxembourg
ma
marc
marie
medieval
metals
miller
millwalls
monk
monolayer
montesquiou
mortimer
munich
mutual
mycroft
myself
nas
niles
occasional
ontario
orleans
outdoor
outer
owl
pacificfarallon
parent
partial
partially
patrick
pete
pilots
pine
pipe
pirate
possession
possibility
prague
predicted
prepare
preservation
produces
professionals
profits
promoting
protestant
protesters
puerto
pupils
quantum
quoted
raf
random
ranking
ratings
rbis
recalled
reelection
referee
refugee
register
reigns
relating
releasing
remix
ren
renault
requiring
researcher
retiring
revenue
reviewed
ride
riders
rivellino
robertson
robot
rockabilly
rolling
romania
ron
roster
sacked
saints
salary
sankoh
saudi
secure
seed
seem
severely
sharing
sheep
shropshire
sight
singers
singh
slow
soft
sole
spoiler
sponsor
sporting
stable
starter
steens
stream
struggling
suffix
suits
summit
sung
surprise
surrounded
survive
suspected
switching
takepart
tales
tamil
technologies
telling
thailand
thereby
thompson
till
traded
underneath
understand
underwent
unless
utah
utrecht
values
vavau
victor
visits
voluntary
voting
waived
warming
warsaw
watching
welsh
wesley
willie
willman
woodland
worcester
yard
yards
yugoslav
##0m
##2009
##39
##ab
##acture
##ager
##alia
##anda
##ando
##ank
##ann
##ares
##arra
##asha
##asure
##aton
##base
##bels
##berry
##bilities
##box
##brates
##bu
##cas
##cast
##ceed
##ceeded
##cene
##ceptible
##cio
##city
##cker
##cp
##craft
##cre
##cribe
##del
##dic
##dison
##dor
##duction
##eal
##ealing
##eals
##ear
##eased
##eds
##ement
##employment
##emporarily
##era
##erde
##erse
##erted
##ev
##fference
##ffin
##fies
##finite
##frastructure
##gage
##gnant
##grapher
##graphic
##group
##haking
##hall
##hames
##hand
##harma
##harp
##hberts
##hibits
##hical
##hile
##hism
##hn
##holders
##hops
##hor
##ht
##iant
##iasm
##ict
##icultural
##idal
##ider
##ients
##iety
##iff
##igation
##illars
##imo
##inates
##inian
##ipe
##ipulated
##ired
##irs
##isco
##iscopal
##ision
##itations
##ith
##itivity
##itted
##iving
##laim
##lain
##lastic
##laude
##ledged
##lerance
##liff
##lips
##ller
##longed
##lor
##lotte
##lson
##lving
##makers
##mal
##mates
##mb
##mell
##mia
##mical
##migrated
##min
##miral
##mising
##mitting
##mps
##mund
##nberg
##nda
##net
##nick
##nik
##nius
##nna
##nock
##ntinuous
##obby
##oid
##ometer
##ondo
##oned
##only
##ont
##oon
##ooner
##oose
##ope
##opic
##orate
##orf
##orn
##osa
##ounced
##oving
##ox
##party
##pecified
##pel
##pendence
##pes
##phew
##piderman
##plane
##ports
##pound
##power
##pping
##present
##ptic
##ptical
##pton
##puted
##qua
##quel
##quent
##quently
##raphic
##rawn
##rds
##ream
##retty
##rict
##rise
##rl
##rner
##road
##roduced
##roduction
##roll
##rop
##rtel
##scent
##sco
##serted
##sess
##sions
##site
##stones
##sure
##taker
##tance
##tate
##tched
##tches
##tection
##tely
##tery
##tia
##toire
##tra
##tro
##tructed
##ttan
##tti
##turned
##ubes
##uch
##ucleus
##uf
##uga
##ughter
##ulus
##umed
##umn
##unded
##urch
##vey
##viction
##we
##week
##weet
##weight
##wife
##written
##yn
##zar
##zers
##zie
03
104
107
116
1833
1839
1842
1847
1857
1858
1868
1881
1884
1886
1891
56
59
60s
6km
70s
728mm
76
89
9th
abortion
actively
acute
adjusted
adults
adviser
advisory
advocates
agents
agreements
aides
airline
alexandria
allegations
aluminum
anatomy
annemarie
aragon
argument
arriving
artistic
asthma
asylum
attempting
auckland
austin
auxiliary
aware
balance
balkan
barclay
bears
bee
belief
believes
beneath
bernard
bills
blacked
bold
bone
bow
breach
brighton
broad
broadcasts
brotherinlaw
busy
cairns
cat
cavaliers
cavalry
cbs
cellular
cena
certainly
chase
climb
closest
collecting
colonial
colony
commanded
commenced
commentator
composers
comprehensive
concentrate
confusion
connects
connor
consulting
contracts
cooperative
copenhagen
corbett
correspondence
craft
css
cumberland
curve
dallas
damone
deck
decreased
defend
defender
define
deletion
departed
dependent
depends
derby
descent
deutsche
diego
disbanded
disciples
discuss
discussions
diverse
divine
don
dragoons
dreams
dupuis
earnings
earthworks
edges
effectively
efficient
eldest
elsewhere
emerson
emotional
employer
employers
enable
encouraged
enhanced
enlisted
entrants
entries
estimate
euro
evans
exception
exist
experts
extending
exterior
falcos
fate
fifteen
fifty
file
finalist
financially
firefighters
fisher
fitness
forbes
forests
forgotten
fortune
frequencies
frequency
functions
garage
garrison
garzn
gelsenkirchenbuer
generations
gibbs
gigabyte
gildea
gods
governing
gross
grow
halls
hams
hayward
healthy
hodges
horses
hugh
identify
ideology
ile
imprisoned
incumbent
indonesia
inducted
insisted
instance
interpreted
iranian
isaac
jeremy
jesse
jgp
joan
jockey
josh
judges
katonah
kernels
keyboard
keyboards
kkelhaus
knee
knows
koga
korkin
krall
ky
lakes
landed
laurent
lecture
leisure
leo
leslie
lester
lever
license
lifeboats
links
lion
llanas
lloyd
lock
logan
logo
looks
lover
lowland
lt
m1917
mail
marking
maroon
martha
matilda
membrane
memoir
mentions
merely
militia
millet
mind
minorities
missile
mitali
ml
montgomery
moon
motor
moves
myrtle
mysterious
na
narrow
nationalism
nepal
neuruppin
nights
noble
northeastern
noting
nova
offensive
okrug
opportunities
oral
ordained
oreiro
overview
owing
p16ink4a
parisian
pastor
payments
pc
peaked
pegidas
pentateuch
photographic
plaza
pole
porto
preparing
presidency
priests
prominently
protecting
punks
pursued
putting
raced
randhawa
rb
rbe
reaction
reactive
readytowear
realized
rebellion
reducing
reduction
regard
relief
researched
resource
responded
retain
reverend
revived
rinpoche
riviera
robopanda
ruth
sailed
sara
scandal
scheme
seattle
secrets
sermons
settlements
seymour
sheridan
sheriff
shops
significance
simard
slam
smoke
soliman
somerset
speaker
specially
stint
storm
strait
strange
stress
stronger
submit
substantial
suit
suitable
sure
surgical
suspension
sustained
swimming
synopsis
syria
systematic
tape
taufaahau
thats
theatrical
theological
thing
threats
throwing
tie
tier
tomato
tools
tooth
tourist
tournaments
transformed
tribe
trustee
trustees
ttc
uganda
ukrainian
unbeaten
uncertain
unfortunately
uniform
unsuccessful
updated
vangelis
venues
violent
virus
wali
walked
walker
warm
warp
warrant
wartime
watched
weak
wedding
whitney
wildcat
wine
wow
zeitung
##!
##,
##.
##?
##\
##_
